<PAD> 1000000
<UNK> 1000000
<S> 1000000
</S> 1000000
理 15
查 1
德 3
· 12
尼 3
克 10
松 1
1 6
9 2
6 1
3 3
苏 1
联 2
和 22
美 3
国 4
斯 11
普 1
特 9
号 1
陀 2
螺 1
爱 6
温 1
哈 3
伯 3
仙 1
女 2
座 1
星 3
系 8
大 15
不 81
列 2
颠 1
合 4
王 2
欧 1
洲 1
回 2
声 4
定 9
位 6
金 7
手 7
套 1
滑 2
雪 2
板 1
一 97
个 73
游 3
戏 4
高 9
队 4
员 2
我 234
天 16
生 15
没 31
有 63
运 8
动 9
基 5
因 3
用 14
硬 1
皮 1
覆 1
盖 1
球 13
木 1
棒 3
打 3
了 33
由 9
每 8
九 1
或 9
十 3
的 217
选 1
两 5
对 25
立 3
它 9
是 151
在 37
领 2
域 1
发 6
挥 2
与 9
四 1
种 13
碱 1
形 6
成 7
菱 1
电 12
路 1
圆 1
扮 1
演 2
名 7
组 3
现 6
场 3
任 13
端 1
目 4
标 1
; 1
被 6
踢 1
身 8
体 12
除 3
臂 1
何 13
部 4
分 7
主 6
要 14
感 31
喜 23
欢 24
那 8
么 37
多 20
你 94
必 3
须 2
行 11
时 19
速 1
度 4
非 4
常 10
快 5
以 27
得 22
到 25
什 29
好 28
处 6
哪 1
置 1
否 3
占 1
量 10
间 5
知 10
道 10
怎 6
玩 2
篮 2
协 1
调 1
吗 9
网 3
真 14
正 10
进 2
入 1
足 4
乔 3
治 5
赫 1
尔 7
曼 1
露 1
丝 1
相 11
当 16
贝 2
马 5
拉 5
纳 2
伟 3
甚 1
至 2
更 14
物 10
学 17
家 3
但 8
觉 20
这 35
事 19
做 8
热 3
熵 1
节 1
约 5
能 24
源 5
癌 1
症 1
波 3
长 3
频 2
率 5
倒 1
数 7
支 4
其 7
他 16
式 7
转 2
换 3
并 5
管 3
规 3
律 2
混 1
化 4
品 6
科 10
晶 1
研 5
究 5
摩 1
子 12
该 13
值 2
为 23
六 1
点 5
零 1
次 2
二 4
第 4
三 2
功 1
超 3
医 1
诊 2
断 2
疗 1
中 4
使 4
术 2
等 5
很 27
奇 1
字 4
计 6
算 6
机 34
应 16
们 23
谈 6
论 5
候 5
习 2
才 2
水 1
别 4
称 2
细 3
胞 2
从 5
还 6
记 5
距 1
离 3
传 1
播 1
方 10
向 2
上 14
测 3
来 16
自 17
给 4
征 1
同 8
下 4
者 4
可 28
看 8
作 21
思 6
维 5
引 3
起 7
菌 1
疾 1
病 1
地 8
心 9
吸 3
力 8
甘 1
质 4
项 1
包 3
括 2
光 2
粒 2
通 5
过 13
隔 3
所 13
远 10
太 7
阳 2
万 3
英 2
里 5
月 2
亮 1
平 1
均 1
2 5
5 1
反 3
最 17
意 10
味 1
着 10
愉 1
己 12
说 19
也 11
许 8
话 4
又 1
已 7
经 9
困 3
扰 1
段 1
诚 3
实 8
直 4
指 3
责 2
考 2
够 2
千 2
确 2
东 8
西 6
总 6
瘾 2
君 2
如 3
果 1
屁 1
股 8
去 6
吻 1
疯 6
敢 3
肯 6
神 2
色 2
紧 2
张 3
精 1
错 6
乱 1
验 3
条 2
件 10
就 3
像 6
糟 3
糕 3
夜 1
晚 1
后 2
肚 1
把 2
人 71
跌 1
逾 1
情 24
面 2
社 5
会 17
趣 6
骗 2
弊 1
提 3
比 5
啊 1
表 2
接 2
受 4
认 9
外 1
观 3
走 3
听 4
争 2
取 4
新 2
谁 4
工 14
坏 2
男 1
让 8
熟 2
倍 1
倾 1
于 11
关 9
恶 1
根 1
本 5
抗 1
拒 1
适 2
容 2
效 2
告 3
诉 3
再 1
捷 1
径 1
尝 2
试 6
都 11
失 2
败 1
配 5
偶 3
然 10
几 5
年 7
朋 2
友 2
育 1
儿 1
技 3
巧 2
些 7
改 4
善 2
刚 1
问 5
法 5
只 6
希 3
望 4
智 4
慧 1
活 3
偏 1
执 1
狂 2
急 3
概 2
洗 1
澡 1
信 5
出 4
找 1
图 4
隐 1
藏 2
类 13
似 1
尽 5
气 5
刺 1
激 1
小 1
咨 1
询 1
较 1
将 2
努 1
矛 1
盾 1
题 5
跑 1
兴 5
故 7
吃 2
药 1
愧 2
疚 1
官 2
迂 1
腐 1
忘 1
察 1
想 8
况 1
民 2
代 3
全 3
性 6
织 2
推 2
环 3
保 2
政 5
建 10
制 6
此 2
族 1
区 1
产 2
资 7
料 2
带 1
无 4
阶 2
级 3
解 5
决 5
冲 1
突 1
共 3
权 2
誉 2
疑 2
怀 1
完 4
样 9
修 2
案 1
暴 1
持 2
安 2
鲁 1
杰 1
逊 1
变 3
枪 1
恭 1
语 4
结 1
构 4
蜘 1
蛛 1
侠 1
布 1
0 9
漫 1
画 1
书 4
拍 1
影 4
具 2
红 2
宝 1
石 1
僵 1
尸 1
幻 2
S 1
U 2
N 2
开 1
I 2
X 1
版 1
H 1
A 2
L 2
启 3
逻 2
辑 2
器 29
虚 2
需 7
哥 1
危 1
及 1
日 1
城 1
市 4
纽 1
怪 1
彼 1
帕 1
缺 4
陷 1
著 1
钱 9
低 2
买 3
卖 2
投 1
切 5
赌 1
议 1
融 1
永 9
预 2
师 1
放 1
弃 1
炒 1
单 4
独 1
战 3
胜 1
央 1
台 3
湾 1
货 2
币 2
财 3
交 6
易 5
媒 1
介 1
、 1
储 1
价 2
帐 1
专 1
门 1
服 1
务 3
充 1
殊 1
商 1
票 3
模 2
随 2
富 2
消 3
费 3
劳 1
税 1
各 6
讲 1
稀 1
造 4
填 1
补 1
求 1
少 3
付 1
免 2
加 1
薪 1
奢 1
侈 1
汇 1
耗 2
元 1
块 1
秘 2
密 2
阴 2
谋 2
府 1
控 3
团 1
假 3
存 4
世 2
纪 1
葡 1
萄 1
园 1
托 5
钦 2
谓 1
界 1
角 1
叟 1
坎 2
雷 5
闻 1
明 2
桥 1
墩 1
写 3
山 1
洞 1
柏 1
寓 1
言 4
之 5
读 3
阅 1
卷 1
酷 1
汉 1
莫 1
赛 1
博 1
麦 1
田 1
捕 1
俄 1
罗 1
沙 1
丘 1
极 1
诗 1
文 1
艺 1
参 1
示 1
录 2
旅 1
础 1
曲 1
E 1
M 1
巨 1
妥 1
耶 1
夫 1
J 1
R 2
玛 1
丽 1
莱 1
穿 4
头 2
猪 1
忍 1
越 2
奶 1
牛 3
禁 1
止 2
鹦 1
鹉 1
柠 1
檬 1
罐 1
装 1
帽 1
息 1
笑 3
南 1
州 1
历 5
史 4
: 2
济 1
军 1
移 1
黎 1
程 5
脑 5
期 2
释 1
您 1
重 1
迪 1
詹 1
姆 1
瓦 1
嗨 1
迎 1
挺 3
待 1
谢 13
呢 4
啥 1
格 1
戈 1
前 2
响 1
整 1
饮 1
营 2
养 1
际 3
傲 1
慢 1
伤 4
b 1
o 4
t 4
幸 1
福 1
绪 7
耻 1
辱 1
见 4
负 1
悲 2
恐 3
惧 3
愤 3
怒 3
难 3
担 2
讨 1
厌 2
害 1
怕 1
冒 1
犯 1
撒 1
谎 1
聊 13
抱 1
怨 1
设 1
简 1
梦 2
羞 1
清 1
醒 1
嫉 1
妒 1
倦 1
乐 2
兄 1
弟 1
隆 3
妈 2
轻 1
致 1
蟒 1
蛇 1
据 1
软 6
久 1
恰 2
义 5
灵 1
复 1
死 2
志 1
旦 1
斗 1
朽 3
终 2
亡 1
广 1
伸 1
强 1
拟 2
械 1
卡 1
' 2
序 3
众 1
周 1
早 1
创 4
暂 1
愚 1
弄 1
另 1
原 1
喋 2
休 1
业 1
P 3
y 3
h 3
n 3
佳 1
鞋 1
乏 1
愿 1
野 1
尤 1
纯 1
操 1
统 1
划 1
腿 1
繁 1
殖 1
住 2
属 1
肉 1
允 1
帮 1
助 1
销 1
售 1
娱 1
